fd715b00
e63085a0
073dd2c0
fd71e9c0
f410a300
ecb70500
17556c80
106734c0
04b30080
f3790a20
e2123f40
ece58be0
e47938c0
e928c700
e9bef180
e4369cc0
e0a5ea60
0a752ec0
ed452cc0
0ce4e880
17b1e480
1d4d05c0
09cf2d00
e930abc0
0bd74d80
1e770480
188334c0
f6e5e8a0
098af080
ec9b67a0
fa1c6de0
0a4044c0
1509f480
0a91dfc0
f2545960
e292c040
f8fcf000
101cfa00
14b75640
f42b3400
10977080
1f7cd4c0
09a73240
02f26e00
105ed040
f8a7d0e0
ed52fc00
f17e08a0
ff0c9ba0
ece837c0
ef162240
01c6ed40
eabd8dc0
1b3c8400
f3091de0
0420fd80
0ef86a40
e8c65ca0
033c8e40
1102d340
12d4e0c0
fc05a220
fc6fccc0
fa653a00
e11ee3c0
e46eb2a0
eec99580
e50e42c0
f4f2b2a0
16c00c80
e7e157a0
0fcfc400
e9af75e0
0a7dcb00
157a7180
edd6b2c0
1edea680
00c43340
042c7a80
e49395a0
0ae4d980
143a5500
18daf900
1f400200
f9a53220
e2f7d780
00a148c0
020e3200
007b2e80
f0354a70
02c54ac0
f31f6ae0
0b2cfa00
f9da4d60
09984d40
fefd5ba0
ec61bb80
f16f8ba0
e822adc0
fa6996a0
eca3f1c0
fadc1f00
fe508140
ebe46200
fa0b3d20
0acccb00
15925c80
001fd420
183f9f80
0b81d0c0
147436c0
12aed940
12845500
034b4a40
ff006ce0
079e4080
1200d900
1ed77b80
eeb1d740
04835540
ef1b12a0
03ded880
10dc9c40
eb52a800
1993bb80
fd4e2440
10abed80
fb7b1600
0a431c80
e70b84e0
eac03ea0
0c5f24c0
eb297a00
f4c83f20
09b42a40
ff1e79a0
0794c440
1b899780
0cee6e80
1ae10900
ebdc3800
f5fac800
1f421200
e2629380
eda1e340
0e394ac0
ff988f20
e90b2680
f01e3b80
0f9d9440
f92b94e0
f19bb940
0090db00
12b4e940
f976f1c0
f059f2f0
e5f93620
f5952a40
f10f2440
e537b7c0
128000c0
0a431e40
e9d5fd00
0d672b80
1007d000
fdc88480
0d399ec0
e3c7d3e0
e55faba0
f5c47520
1dd95440
13297f80
1c0c4080
e0e7dca0
13379480
18c4fdc0
0cca0900
f4c5fd20
e6975300
f56a9bc0
eb36b100
154c63c0
eebad1c0
ff653d40
0cc28fc0
0dbf1ac0
06874440
eb9ff6c0
f3887860
19da7640
fe04abc0
1239c380
f6917b40
05797240
14db9780
fa803f40
028d50c0
1a029380
0f4f0a80
f7578b20
10ea5ec0
067af2c0
1ec1e040
179b0fc0
0498a980
e9ef0620
f181ab20
e1968bc0
ec9e9900
fbe1a600
0ff00800
eb4f09e0
013a0400
e4e68880
f05aa0c0
13535cc0
