fcabe750
fa2c5580
efe80020
f0ad7650
fe312760
078dbde0
0accf560
fdd6d140
fe0cf060
01d48620
efebafa0
01e32d20
faefc640
f5558a20
04f0bd80
eeb64d20
0e589420
ff3c7e60
00d06e60
eddf19c0
08ab0f80
0aa772c0
0bb614c0
040e08e0
f1ea1710
0b077340
08ab5a20
f57f9df0
f2e838c0
08cd7c20
f0549d20
feb3fb80
f743e0b0
f2d59830
f25da060
f4976920
f6b0af70
0968ff00
0ff61d20
10de1860
ffc0fe80
098c82c0
0e8d86e0
0697c260
f2ebb050
0478c160
f9c83e30
fe6b2e00
120f0620
0125e940
00446120
0fb8dda0
03500c80
08ec1ae0
02b49100
07905020
fd803c90
f8c94c60
f3ed5ba0
0a9b8ae0
074a24a0
ee7be2c0
057af520
f7421970
03726f60
0ca0e480
fbc69cc0
f1ba8060
f9e6a0b0
ffd7cdc0
06134840
118ad120
00b566c0
fc8779e0
0f6523a0
f5958280
f69a7c10
10c27660
eddf80a0
eff8cb00
fc430be0
f43a08d0
0e553420
01519f60
fc503710
0589f960
0d4ddb00
f9ad4e60
f1bfd6c0
f63a0760
f0022730
f4893100
03a62c00
0acb1860
055f3b40
f9448d00
03cbe8a0
fa775050
f84e0a50
03ca5e60
edd7c0c0
0fae2ce0
faec5c20
f1566cd0
f0a01c60
04e4eca0
08106940
f2eaa2d0
f59e91c0
101ce020
0867db40
07efce00
f06190b0
fcb638f0
f377e810
ef73ab20
f3402200
10f5a0e0
fce28140
0cc68820
01fc1d80
11729d20
f7d54a60
f1f0b280
0de013a0
f7ae86e0
09d3e840
f678ba60
07cf4660
087767a0
06660da0
04e7b660
1171f5a0
0f197920
030dd480
0451bba0
0842ff60
f173e720
0c2324c0
08eb8820
f2fe6e20
fcf1e380
04502a80
0678ea60
f48a7c20
f6216880
0cd25620
f96abee0
06e16f80
009f9e20
f17b59e0
0e602c60
f797b8b0
090970c0
0d3b4e00
fe740d40
0bb91e00
0199e460
edb405e0
0f5165a0
02a9d1a0
f3e79fc0
ff5ab9e0
f2ee9890
ffabade0
0cf8d7c0
01fb0c40
03bdfde0
eee4e580
08d38080
f1e9e1c0
f0ba15e0
0925ffa0
f47a72b0
f1ce3070
04c73660
0565faa0
10f76320
f98ad330
fc4d49f0
00468140
f96febb0
02d3a2e0
fa0904f0
f24f6560
014e11a0
0f060c20
f3bcecd0
f7908870
f18600e0
0e21bda0
0fef7260
f2ff6860
10e48d20
f91740a0
109bc4e0
f5f762b0
f9c36f70
00c8a700
fde690a0
07d983a0
f37d8210
ee068580
f5886620
0baf85a0
f93aa460
fb9be1d0
106346a0
07ea9dc0
0be62e80
05011b20
063fc840
03932d60
ffce7800
f32899c0
01601840
f1760b00
f9a52e30
f41a3560
1175d8e0
049148c0
fcf1b8d0
efd3d4c0
f5b9bcf0
f88fa1d0
121f9460
f0890fb0
0c84c8c0
f1a5eec0
f266f720
0cde8640
030b9320
0fb5b560
fb2f2060
035ba740
ee7f77a0
120a6020
fcb62e00
fe481160
effada00
fe9776a0
110183e0
ff4f12e0
04a07160
f3d52e40
035f9620
0ee2cb20
01005b60
f77b8620
f912d4d0
016b1e20
038f9960
0f851560
0cd84480
f92313d0
03a6c160
fea09ea0
0f009360
f944e470
f50545c0
f3ad1e80
100400e0
fecf4e40
0e7a2da0
0956d4e0
ee0ef520
f5afc9f0
08a14ba0
f4cf1e90
fc7a1750
f8b235b0
0524ca40
fc3465b0
07ba7dc0
0c5a5dc0
106acf20
f78d7400
fe18db60
11325de0
098de360
fcb378d0
0e657fa0
f13a2a80
f68da8a0
0ada8260
0c55c200
f2a3f380
f0c95aa0
faa1a2f0
05c61380
fb924840
f828c9d0
f524fc00
f6c9d440
fd4201b0
0f0847e0
f2e890c0
0111cb20
023ee580
fe136a00
081bb520
03134300
ef92df40
f3920d70
0a410c00
fc956dc0
edd7b500
f8857d40
09af3c80
026417a0
0dfa0ce0
eee133c0
071f1300
ff1aa120
f5b77cf0
f7c66ae0
125209e0
f4198d00
fc21f900
037f55c0
fd77bf70
000f6040
10555c60
f31be5c0
f58c5ec0
01dd6060
fb95a660
f6085fd0
10ef9120
efbd4d20
f30d1c00
ff845820
0b1a6500
fdc55dc0
0511cee0
f798bd50
00338140
0428d3e0
f88bc670
f148c6a0
f94622b0
08c92460
06132900
03823a00
f32cc360
0251cb20
f4e2bed0
feccb000
0f852560
11b69220
09555a20
0ff429a0
090ac080
103996e0
0942bb40
04c6c040
f5618ee0
0ccc44e0
11f2bb20
f58411d0
098094a0
0a9eae40
f1ab2fa0
0026dfa0
0ab1f700
f2764c80
f66b28d0
ef76a2e0
f40519c0
f076b120
0c46a1c0
0aedb7c0
0e3386e0
00a489c0
f545d0a0
0b6db240
febad860
f945cf40
fc4bfc40
079ae420
00fa9dc0
fd7ec4b0
ef699340
05ac7dc0
0d5b4c80
08fffb00
0437aa00
0aae3e60
10e33860
ef706800
f3a1e260
09196820
fb5c3920
0a6cbdc0
05d63140
ffb591e0
fd4cc5f0
f7673340
f33b8640
10b803e0
f6b745c0
fc99fce0
f4d356d0
f9f778d0
edc89b40
06ded340
f3677080
0a351f40
02f36c00
ff5cf740
07de2bc0
00de7b40
f2841960
01105780
fa373b90
0ae59ae0
101c3360
fe370ae0
fe1e4020
ffe79300
01977280
00842860
fd44d550
017dd1a0
0166bb80
f13dca80
f327f7c0
0ba438e0
0a86efc0
06b558c0
ff4e5f20
f0c39220
fe601900
1244ebe0
fb22ac10
00158360
001f4140
1223c1a0
0b110040
f0453d20
efa6a560
f80edf30
11e75ae0
009fbd00
08d855e0
ef2d00a0
f22000f0
fa3c00e0
f0436f40
f10d0160
1206cc60
f7e50540
03e74760
fed10840
0770d4a0
f2562750
f5e3b8b0
f692f380
0061be60
f9581450
04b1bb00
11195d60
f4ae7940
02a8d7e0
f1aa1820
f36665a0
01275d60
02689de0
000d87c0
f5173850
fe4d9360
f6f00060
fab4dbb0
00b26960
11cb9f60
f046f6a0
117fa360
fd537180
06344c40
ef6a1d20
0259d540
08050ba0
fdf52e00
0ca2a3a0
f3abbcb0
f4498400
f8d230b0
0d4acbc0
10136e20
ee79a8e0
fb8e7260
f5088660
0c580920
0da4dc60
00ef9820
ff6b4720
03ba12c0
f9c718e0
fd9d1f30
0d81f880
f485d940
f08eb5c0
05500360
049af8e0
0b988420
f66ac430
f9bb9770
f2e87d40
10cebd60
f9b6c940
06ef3500
fd87c840
f4299070
fb6d72b0
0235cf00
fc57f4b0
fb516080
08349520
ef7979a0
fd40c0e0
fd55b170
0a4306e0
f7c16910
f48ba600
f78409d0
093ca320
ef5b5a80
f3a6f160
f3693ab0
fe63aae0
05f437c0
f65fb920
f02cc3c0
10aa0b20
f0f7bba0
0b65f980
00c6e8a0
086d5400
fdec3620
fad66cb0
f53f7c40
f3742b10
124828e0
0de5cf60
0c3d1ae0
0f3973a0
0185a6c0
ee17d6a0
04c4b560
093481c0
ff4bff00
0dfa06a0
0f5f8fa0
f1f85000
fca47040
043c7d20
edcb1000
f3657a00
f0322da0
fa6cc800
058a3960
fcb1df20
ef83d580
0d3e98e0
037e26c0
f0be8330
05937ee0
05f94960
edd81080
09b2e0e0
f29d05b0
0898a940
f13ccd10
f3978560
0903cea0
eeb56e60
0d6f9940
f7332900
f79a9610
0188fd60
ffbc8280
03fe8d60
edecb020
f2167980
efd83720
f2e4ca00
f3825570
fc6e3b90
02b1d6e0
0475a060
f7920490
06a8b980
00a60240
017a54a0
fb26b3e0
fee9f980
030c0f40
f604ba50
f3a708e0
ffa596e0
1244f0e0
0f597d20
f39c71e0
0f564920
10bbaf60
fb7e6fd0
fc7608a0
046a9460
0472b940
f3f141e0
f37069d0
11fd5ea0
11c91120
03322640
fc877ec0
f2196170
08e5b1e0
0c3f4020
f9688b40
f3608840
fea240e0
eee5fbe0
06d954c0
08ee0080
0af54d80
fe86e880
02c200a0
0f393320
0db2d3a0
0f0efce0
0204cfe0
05647b00
efc13840
f21a5290
ff32c180
0569e360
00f99520
f1447520
0a8ed380
09a8d6a0
f7f4cd00
09ca9000
09fcbf40
ee7d7f00
0feb0160
fa416700
f396afc0
0f010b20
f89d1eb0
020508c0
ee8be1e0
09cd9220
0cf40300
00dba3a0
08e4ce40
ff16c4a0
0b33abe0
094865a0
054fada0
f4b843c0
04b49780
063a3840
fc566b60
f2ad68e0
0c296d60
0042aec0
05597d20
f6e58020
fceaae10
fd4072e0
f0e06900
fee16040
f3b85240
042da820
f2132ee0
ffa81220
045fbd00
11588aa0
f03ddf90
0e8796a0
ff7c5120
0ca2d020
feb60ec0
01e424a0
0957b740
f1c71c40
fcaabce0
fadaf580
01396040
0b402f20
ee39cf20
ffadffe0
f7d06870
f75e9440
0f5876a0
f51a8cf0
05d97cc0
fa5dc1c0
0eb78f20
f38d8ea0
0c0381c0
083e65e0
04c7e2a0
ee717640
0d225ac0
07188cc0
0909cc40
ee08ba00
faad7860
0614a000
07b9afa0
f60599b0
0fc40aa0
fdb8ea00
052217a0
f47a16b0
0c4e6d60
f370c740
0dd30ce0
06417320
fdba1540
f0566580
f2ac8820
f7fde740
05712720
fa424fd0
0de8f560
ef4445e0
fe33d940
ff289f00
ef869e80
ef3dc6c0
10b29fe0
11a79ce0
f2e9aee0
fcb9eab0
04744f40
085edf60
0d5e7340
0da30960
f6c95010
0c926e60
fc984230
06ad19a0
fc215e80
00feada0
eec291e0
00a05da0
0712d060
f212ea60
08cfa6a0
0c129040
0194c240
fe2cc420
0719fc00
0ab60fc0
01668020
f5c4c160
edcae660
03b812c0
0b505fc0
0dbacb20
0e3637e0
0e76e860
f83ff690
ee9faf60
fcffd490
12327b60
f2c468e0
efd75be0
07e97020
fff2ee00
fa04d830
09065200
f3970860
042a6260
ff96d200
f267cf40
0fecb9a0
f73047a0
f4c6aea0
0fb3d8e0
058a8ec0
08449220
0b77e680
f440afc0
00cc1e00
ee7feb60
0461b5e0
05573f20
fae080a0
f63b8f00
f69a6530
0e8c4a20
f8e228a0
f3c008b0
f5f1e830
002b42a0
05d9d1a0
08af5ba0
f8a57360
f2be4700
0a1180c0
f5da8e20
0bb07fa0
0d196700
021050e0
edcfcca0
033c4620
04da4700
0c158a00
0d84efe0
fdcf6680
ff816a20
091bf2a0
f7b3d3c0
f0d891e0
f5e382c0
0c652aa0
ff2bbdc0
f91ed500
f9d00eb0
fca6cb30
f2f4bba0
fa575590
0d05a4e0
f7e7f2f0
fa48fda0
01ac0d20
01f86360
03250be0
0b7af6e0
01c030e0
076eb9a0
fcd083d0
f540a950
fce8bf00
07252920
0eca25a0
023240c0
f4920de0
05718580
0e676220
f5b9a570
00204540
ee075e00
fe18eea0
f2588120
00ad4200
07e040a0
f49c6520
044194a0
0d7518a0
f0b8fca0
f5ac0540
f7dcac90
f2d188f0
f5eb96b0
03a27b60
f2d2f270
05c86ba0
01152580
fdffc900
0d39d900
f78fa560
edc23560
02b71c40
fff8de60
028ac680
f4352760
f4411620
0b0e0fe0
0a2e5c80
00842a60
0c8df480
f317d4d0
f90a72a0
02ed1840
0eb21320
efa844c0
f0a8e330
f6db85f0
fdccaea0
0c313e40
fd183dd0
09dc55e0
edd0e640
f60db420
09c92960
ef294e40
0671f7c0
f6193cd0
f4beef40
f5b2a870
0a9bada0
0a084500
0b7151e0
fccf7660
fe793d80
07d0de60
f9487b50
0554b180
fe399c40
f112dc30
f0d5c930
0a38b260
f77ad3c0
ff57f8a0
0a0bd9e0
feb40fa0
ff110d00
f9c44cc0
f33af5c0
10767520
f7097290
0afcef40
02857e80
fb072ef0
0f1652e0
051a5f40
0e284f60
07af8f60
fa6406f0
f781ead0
095bf3e0
0db122e0
f0c24070
f1aa5090
12198c20
fc547e40
085ffe20
0ec006e0
1049d020
faa3d6e0
06fe74a0
04b3a220
f06f9b80
02886f00
f15f2fe0
f9ab3320
fd8cce10
fa07b420
00c1d840
f54cad80
035d7a40
0a940f80
edec8720
fa353530
0a690120
f99f91d0
ef70c3c0
f558eba0
0efb0760
082f2ca0
f3793dc0
f759b050
002ef420
01e31ba0
f4fec3e0
0dc056a0
fc424730
fb496340
feb6c8e0
03d79e80
eda88860
001d1280
f9a95460
edcec740
0dff91a0
052a0440
f51f5760
f7f79730
f40ccd10
04e04880
f8e1c650
03d5d060
ef9ce4e0
eec180e0
0ebdace0
f3a4a5f0
0074efc0
fa8782b0
fc95b3b0
ee94f820
f3a5c3c0
076ee980
f6af14f0
ff08ed60
0719a6a0
0100b500
f82f2230
f99202e0
fd9e2c10
ee80a060
f56f7860
f134b440
020dc2a0
08f75c20
fa7ba2f0
fdad68c0
fe20cb80
06c513a0
f6d3dc70
0ed6dfe0
f09c6400
0b24c5c0
f9c40b10
efabd620
0efe4e20
f4417d00
068814c0
0d4ffd80
0fdef5a0
fe6623e0
06ed3b00
f26f1030
f3e93f80
023633e0
1027e520
fb869210
f1d76c80
07fe32c0
f0002090
faddd600
0f3ad320
f8559600
0213f160
fd82f930
0a0c1000
f8cbe460
0708a8a0
f85d82f0
0b5b6f60
01eaa9c0
f5078250
f2733380
0c3cef00
123a1b60
0a2692a0
f0e81400
0694b320
fe6e9100
01fcd500
fff5c560
f3699900
f5cc8cc0
0ac89b60
0d5f3740
f0389060
fd2cd4f0
f9fd9220
04487260
f1476d30
f4b839c0
0d8e19a0
0d9c04a0
032f7940
fc652680
0f0940e0
0fd10a20
f82edcd0
0d3610e0
0251fc20
f079ff20
1199d1e0
0b7e7d20
f9cf6540
09021d40
10ca73e0
fcd573e0
054ed3c0
05fa8340
01674b20
f69c20b0
0e24b8a0
0f97c6a0
004e75e0
0658a400
fd21c6c0
f26ad3e0
f1575c80
0e349ca0
f5abd030
10027460
ff296e40
0c156d20
0263b220
fc171420
02e03b60
f97a2c60
f5678a60
03a3d560
0cff40c0
00aeba20
04d161c0
0e0743a0
fa52d350
084ac740
f4a8c760
007e0cc0
0f84f1e0
03e740c0
0a3f6f20
0fa9b9a0
123eb820
058cd620
00ad04a0
10ad2be0
ee872dc0
07f91940
031cd500
f0d0d3c0
eeac7d80
0a299180
010bc140
ffe35220
0caba660
feb6f460
06913700
fe81f880
f80158d0
0481dfe0
008e50c0
019b6e40
f4903c40
032d3480
ede19760
08227e80
042cfc20
f2c98c00
f01864e0
07fc1ca0
fbf1c3d0
f21d45b0
ff4e6da0
ef979a00
fb177400
087a0cc0
04467e20
0ae22ec0
fee50520
fb79e9e0
014898e0
0a489280
fc48e820
fee73da0
fb9d32a0
0bdca380
f08fc190
1022c460
01727720
eeed24c0
