// VWW conv2 weights 1152x16b Q4.12 sha=7e3e65cd4874
0050
0120
01f0
02c0
0390
0460
0530
0600
06d0
07a0
0870
0940
0a10
0ae0
0bb0
0c80
0d50
0e20
0ef0
0fc0
0090
0160
0230
0300
03d0
04a0
0570
0640
0710
07e0
08b0
0980
0a50
0b20
0bf0
0cc0
0d90
0e60
0f30
0000
00d0
01a0
0270
0340
0410
04e0
05b0
0680
0750
0820
08f0
09c0
0a90
0b60
0c30
0d00
0dd0
0ea0
0f70
0040
0110
01e0
02b0
0380
0450
0520
05f0
06c0
0790
0860
0930
0a00
0ad0
0ba0
0c70
0d40
0e10
0ee0
0fb0
0080
0150
0220
02f0
03c0
0490
0560
0630
0700
07d0
08a0
0970
0a40
0b10
0be0
0cb0
0d80
0e50
0f20
0ff0
00c0
0190
0260
0330
0400
04d0
05a0
0670
0740
0810
08e0
09b0
0a80
0b50
0c20
0cf0
0dc0
0e90
0f60
0030
0100
01d0
02a0
0370
0440
0510
05e0
06b0
0780
0850
0920
09f0
0ac0
0b90
0c60
0d30
0e00
0ed0
0fa0
0070
0140
0210
02e0
03b0
0480
0550
0620
06f0
07c0
0890
0960
0a30
0b00
0bd0
0ca0
0d70
0e40
0f10
0fe0
00b0
0180
0250
0320
03f0
04c0
0590
0660
0730
0800
08d0
09a0
0a70
0b40
0c10
0ce0
0db0
0e80
0f50
0020
00f0
01c0
0290
0360
0430
0500
05d0
06a0
0770
0840
0910
09e0
0ab0
0b80
0c50
0d20
0df0
0ec0
0f90
0060
0130
0200
02d0
03a0
0470
0540
0610
06e0
07b0
0880
0950
0a20
0af0
0bc0
0c90
0d60
0e30
0f00
0fd0
00a0
0170
0240
0310
03e0
04b0
0580
0650
0720
07f0
08c0
0990
0a60
0b30
0c00
0cd0
0da0
0e70
0f40
0010
00e0
01b0
0280
0350
0420
04f0
05c0
0690
0760
0830
0900
09d0
0aa0
0b70
0c40
0d10
0de0
0eb0
0f80
0050
0120
01f0
02c0
0390
0460
0530
0600
06d0
07a0
0870
0940
0a10
0ae0
0bb0
0c80
0d50
0e20
0ef0
0fc0
0090
0160
0230
0300
03d0
04a0
0570
0640
0710
07e0
08b0
0980
0a50
0b20
0bf0
0cc0
0d90
0e60
0f30
0000
00d0
01a0
0270
0340
0410
04e0
05b0
0680
0750
0820
08f0
09c0
0a90
0b60
0c30
0d00
0dd0
0ea0
0f70
0040
0110
01e0
02b0
0380
0450
0520
05f0
06c0
0790
0860
0930
0a00
0ad0
0ba0
0c70
0d40
0e10
0ee0
0fb0
0080
0150
0220
02f0
03c0
0490
0560
0630
0700
07d0
08a0
0970
0a40
0b10
0be0
0cb0
0d80
0e50
0f20
0ff0
00c0
0190
0260
0330
0400
04d0
05a0
0670
0740
0810
08e0
09b0
0a80
0b50
0c20
0cf0
0dc0
0e90
0f60
0030
0100
01d0
02a0
0370
0440
0510
05e0
06b0
0780
0850
0920
09f0
0ac0
0b90
0c60
0d30
0e00
0ed0
0fa0
0070
0140
0210
02e0
03b0
0480
0550
0620
06f0
07c0
0890
0960
0a30
0b00
0bd0
0ca0
0d70
0e40
0f10
0fe0
00b0
0180
0250
0320
03f0
04c0
0590
0660
0730
0800
08d0
09a0
0a70
0b40
0c10
0ce0
0db0
0e80
0f50
0020
00f0
01c0
0290
0360
0430
0500
05d0
06a0
0770
0840
0910
09e0
0ab0
0b80
0c50
0d20
0df0
0ec0
0f90
0060
0130
0200
02d0
03a0
0470
0540
0610
06e0
07b0
0880
0950
0a20
0af0
0bc0
0c90
0d60
0e30
0f00
0fd0
00a0
0170
0240
0310
03e0
04b0
0580
0650
0720
07f0
08c0
0990
0a60
0b30
0c00
0cd0
0da0
0e70
0f40
0010
00e0
01b0
0280
0350
0420
04f0
05c0
0690
0760
0830
0900
09d0
0aa0
0b70
0c40
0d10
0de0
0eb0
0f80
0050
0120
01f0
02c0
0390
0460
0530
0600
06d0
07a0
0870
0940
0a10
0ae0
0bb0
0c80
0d50
0e20
0ef0
0fc0
0090
0160
0230
0300
03d0
04a0
0570
0640
0710
07e0
08b0
0980
0a50
0b20
0bf0
0cc0
0d90
0e60
0f30
0000
00d0
01a0
0270
0340
0410
04e0
05b0
0680
0750
0820
08f0
09c0
0a90
0b60
0c30
0d00
0dd0
0ea0
0f70
0040
0110
01e0
02b0
0380
0450
0520
05f0
06c0
0790
0860
0930
0a00
0ad0
0ba0
0c70
0d40
0e10
0ee0
0fb0
0080
0150
0220
02f0
03c0
0490
0560
0630
0700
07d0
08a0
0970
0a40
0b10
0be0
0cb0
0d80
0e50
0f20
0ff0
00c0
0190
0260
0330
0400
04d0
05a0
0670
0740
0810
08e0
09b0
0a80
0b50
0c20
0cf0
0dc0
0e90
0f60
0030
0100
01d0
02a0
0370
0440
0510
05e0
06b0
0780
0850
0920
09f0
0ac0
0b90
0c60
0d30
0e00
0ed0
0fa0
0070
0140
0210
02e0
03b0
0480
0550
0620
06f0
07c0
0890
0960
0a30
0b00
0bd0
0ca0
0d70
0e40
0f10
0fe0
00b0
0180
0250
0320
03f0
04c0
0590
0660
0730
0800
08d0
09a0
0a70
0b40
0c10
0ce0
0db0
0e80
0f50
0020
00f0
01c0
0290
0360
0430
0500
05d0
06a0
0770
0840
0910
09e0
0ab0
0b80
0c50
0d20
0df0
0ec0
0f90
0060
0130
0200
02d0
03a0
0470
0540
0610
06e0
07b0
0880
0950
0a20
0af0
0bc0
0c90
0d60
0e30
0f00
0fd0
00a0
0170
0240
0310
03e0
04b0
0580
0650
0720
07f0
08c0
0990
0a60
0b30
0c00
0cd0
0da0
0e70
0f40
0010
00e0
01b0
0280
0350
0420
04f0
05c0
0690
0760
0830
0900
09d0
0aa0
0b70
0c40
0d10
0de0
0eb0
0f80
0050
0120
01f0
02c0
0390
0460
0530
0600
06d0
07a0
0870
0940
0a10
0ae0
0bb0
0c80
0d50
0e20
0ef0
0fc0
0090
0160
0230
0300
03d0
04a0
0570
0640
0710
07e0
08b0
0980
0a50
0b20
0bf0
0cc0
0d90
0e60
0f30
0000
00d0
01a0
0270
0340
0410
04e0
05b0
0680
0750
0820
08f0
09c0
0a90
0b60
0c30
0d00
0dd0
0ea0
0f70
0040
0110
01e0
02b0
0380
0450
0520
05f0
06c0
0790
0860
0930
0a00
0ad0
0ba0
0c70
0d40
0e10
0ee0
0fb0
0080
0150
0220
02f0
03c0
0490
0560
0630
0700
07d0
08a0
0970
0a40
0b10
0be0
0cb0
0d80
0e50
0f20
0ff0
00c0
0190
0260
0330
0400
04d0
05a0
0670
0740
0810
08e0
09b0
0a80
0b50
0c20
0cf0
0dc0
0e90
0f60
0030
0100
01d0
02a0
0370
0440
0510
05e0
06b0
0780
0850
0920
09f0
0ac0
0b90
0c60
0d30
0e00
0ed0
0fa0
0070
0140
0210
02e0
03b0
0480
0550
0620
06f0
07c0
0890
0960
0a30
0b00
0bd0
0ca0
0d70
0e40
0f10
0fe0
00b0
0180
0250
0320
03f0
04c0
0590
0660
0730
0800
08d0
09a0
0a70
0b40
0c10
0ce0
0db0
0e80
0f50
0020
00f0
01c0
0290
0360
0430
0500
05d0
06a0
0770
0840
0910
09e0
0ab0
0b80
0c50
0d20
0df0
0ec0
0f90
0060
0130
0200
02d0
03a0
0470
0540
0610
06e0
07b0
0880
0950
0a20
0af0
0bc0
0c90
0d60
0e30
0f00
0fd0
00a0
0170
0240
0310
03e0
04b0
0580
0650
0720
07f0
08c0
0990
0a60
0b30
0c00
0cd0
0da0
0e70
0f40
0010
00e0
01b0
0280
0350
0420
04f0
05c0
0690
0760
0830
0900
09d0
0aa0
0b70
0c40
0d10
0de0
0eb0
0f80
0050
0120
01f0
02c0
0390
0460
0530
0600
06d0
07a0
0870
0940
0a10
0ae0
0bb0
0c80
0d50
0e20
0ef0
0fc0
0090
0160
0230
0300
03d0
04a0
0570
0640
0710
07e0
08b0
0980
0a50
0b20
0bf0
0cc0
0d90
0e60
0f30
0000
00d0
01a0
0270
0340
0410
04e0
05b0
0680
0750
0820
08f0
09c0
0a90
0b60
0c30
0d00
0dd0
0ea0
0f70
0040
0110
01e0
02b0
0380
0450
0520
05f0
06c0
0790
0860
0930
0a00
0ad0
0ba0
0c70
0d40
0e10
0ee0
0fb0
0080
0150
0220
02f0
03c0
0490
0560
0630
0700
07d0
08a0
0970
0a40
0b10
0be0
0cb0
0d80
0e50
0f20
0ff0
00c0
0190
0260
0330
0400
04d0
05a0
0670
0740
0810
08e0
09b0
0a80
0b50
0c20
0cf0
0dc0
0e90
0f60
0030
0100
01d0
02a0
0370
0440
0510
05e0
06b0
0780
