// VWW conv0 weights 72x16b Q4.12 sha=57c0c99b3ad1
0030
00a0
0110
0180
01f0
0260
02d0
0340
03b0
0420
0490
0500
0570
05e0
0650
06c0
0730
07a0
0810
0880
08f0
0960
09d0
0a40
0ab0
0b20
0b90
0c00
0c70
0ce0
0d50
0dc0
0e30
0ea0
0f10
0f80
0ff0
0060
00d0
0140
01b0
0220
0290
0300
0370
03e0
0450
04c0
0530
05a0
0610
0680
06f0
0760
07d0
0840
08b0
0920
0990
0a00
0a70
0ae0
0b50
0bc0
0c30
0ca0
0d10
0d80
0df0
0e60
0ed0
0f40
