// GestureNet FC3 weights 140x16b Q4.12 sha=099776c88801
0070
0120
01d0
0280
0330
03e0
0490
0540
05f0
06a0
0750
0800
08b0
0960
0a10
0ac0
0b70
0c20
0cd0
0d80
0e30
0ee0
0f90
0040
00f0
01a0
0250
0300
03b0
0460
0510
05c0
0670
0720
07d0
0880
0930
09e0
0a90
0b40
0bf0
0ca0
0d50
0e00
0eb0
0f60
0010
00c0
0170
0220
02d0
0380
0430
04e0
0590
0640
06f0
07a0
0850
0900
09b0
0a60
0b10
0bc0
0c70
0d20
0dd0
0e80
0f30
0fe0
0090
0140
01f0
02a0
0350
0400
04b0
0560
0610
06c0
0770
0820
08d0
0980
0a30
0ae0
0b90
0c40
0cf0
0da0
0e50
0f00
0fb0
0060
0110
01c0
0270
0320
03d0
0480
0530
05e0
0690
0740
07f0
08a0
0950
0a00
0ab0
0b60
0c10
0cc0
0d70
0e20
0ed0
0f80
0030
00e0
0190
0240
02f0
03a0
0450
0500
05b0
0660
0710
07c0
0870
0920
09d0
0a80
0b30
0be0
0c90
0d40
0df0
0ea0
0f50
0000
