00000030
000000a0
00000110
00000180
000001f0
00000260
000002d0
00000340
000003b0
00000420
00000490
00000500
00000570
000005e0
00000650
000006c0
00000730
000007a0
00000810
00000880
000008f0
00000960
000009d0
00000a40
00000ab0
00000b20
00000b90
00000c00
00000c70
00000ce0
00000d50
00000dc0
00000e30
00000ea0
00000f10
00000f80
