00000070
00000120
000001d0
00000280
00000330
000003e0
00000490
00000540
000005f0
000006a0
00000750
00000800
000008b0
00000960
00000a10
00000ac0
00000b70
00000c20
00000cd0
00000d80
00000e30
00000ee0
00000f90
00000040
000000f0
000001a0
00000250
00000300
000003b0
00000460
00000510
000005c0
00000670
00000720
000007d0
00000880
00000930
000009e0
00000a90
00000b40
00000bf0
00000ca0
00000d50
00000e00
00000eb0
00000f60
00000010
000000c0
00000170
00000220
000002d0
00000380
00000430
000004e0
00000590
00000640
000006f0
000007a0
00000850
00000900
000009b0
00000a60
00000b10
00000bc0
00000c70
00000d20
00000dd0
00000e80
00000f30
00000fe0
00000090
00000140
000001f0
000002a0
00000350
00000400
000004b0
00000560
00000610
000006c0
00000770
00000820
000008d0
00000980
00000a30
00000ae0
00000b90
00000c40
00000cf0
00000da0
00000e50
00000f00
00000fb0
00000060
00000110
000001c0
00000270
00000320
000003d0
00000480
00000530
000005e0
00000690
00000740
000007f0
000008a0
00000950
00000a00
00000ab0
00000b60
00000c10
00000cc0
00000d70
00000e20
00000ed0
00000f80
00000030
000000e0
00000190
00000240
000002f0
000003a0
00000450
00000500
000005b0
00000660
00000710
000007c0
00000870
00000920
000009d0
00000a80
00000b30
00000be0
00000c90
00000d40
00000df0
00000ea0
00000f50
00000000
000000b0
00000160
00000210
000002c0
00000370
00000420
000004d0
00000580
00000630
000006e0
00000790
00000840
000008f0
000009a0
00000a50
00000b00
00000bb0
00000c60
00000d10
00000dc0
00000e70
00000f20
00000fd0
00000080
00000130
000001e0
00000290
00000340
000003f0
000004a0
00000550
00000600
000006b0
00000760
00000810
000008c0
00000970
00000a20
00000ad0
00000b80
00000c30
00000ce0
00000d90
00000e40
00000ef0
00000fa0
00000050
00000100
000001b0
00000260
00000310
000003c0
00000470
00000520
000005d0
00000680
00000730
000007e0
00000890
00000940
000009f0
00000aa0
00000b50
00000c00
00000cb0
00000d60
00000e10
00000ec0
00000f70
00000020
000000d0
00000180
00000230
000002e0
00000390
00000440
000004f0
000005a0
00000650
00000700
000007b0
00000860
00000910
000009c0
00000a70
00000b20
00000bd0
00000c80
00000d30
00000de0
00000e90
00000f40
00000ff0
000000a0
00000150
00000200
000002b0
00000360
00000410
000004c0
00000570
00000620
000006d0
00000780
00000830
000008e0
00000990
00000a40
00000af0
00000ba0
00000c50
00000d00
00000db0
00000e60
00000f10
00000fc0
00000070
00000120
000001d0
00000280
00000330
000003e0
00000490
00000540
000005f0
000006a0
00000750
00000800
000008b0
00000960
00000a10
00000ac0
00000b70
00000c20
00000cd0
00000d80
00000e30
00000ee0
00000f90
00000040
000000f0
000001a0
00000250
00000300
000003b0
00000460
00000510
000005c0
00000670
00000720
000007d0
00000880
00000930
000009e0
00000a90
00000b40
00000bf0
00000ca0
00000d50
00000e00
00000eb0
00000f60
00000010
000000c0
00000170
00000220
000002d0
00000380
00000430
000004e0
00000590
00000640
000006f0
000007a0
00000850
00000900
000009b0
00000a60
00000b10
00000bc0
00000c70
00000d20
00000dd0
00000e80
00000f30
00000fe0
00000090
00000140
000001f0
000002a0
00000350
00000400
000004b0
00000560
00000610
000006c0
00000770
00000820
000008d0
00000980
00000a30
00000ae0
00000b90
00000c40
00000cf0
00000da0
00000e50
00000f00
00000fb0
00000060
00000110
000001c0
00000270
00000320
000003d0
00000480
00000530
000005e0
00000690
00000740
000007f0
000008a0
00000950
00000a00
00000ab0
00000b60
00000c10
00000cc0
00000d70
00000e20
00000ed0
00000f80
00000030
000000e0
00000190
00000240
000002f0
000003a0
00000450
00000500
000005b0
00000660
00000710
000007c0
00000870
00000920
000009d0
00000a80
00000b30
00000be0
00000c90
00000d40
00000df0
00000ea0
00000f50
00000000
000000b0
00000160
00000210
000002c0
00000370
00000420
000004d0
00000580
00000630
000006e0
00000790
00000840
000008f0
000009a0
00000a50
00000b00
00000bb0
00000c60
00000d10
00000dc0
00000e70
00000f20
00000fd0
00000080
00000130
000001e0
00000290
00000340
000003f0
000004a0
00000550
00000600
000006b0
00000760
00000810
000008c0
00000970
00000a20
00000ad0
00000b80
00000c30
00000ce0
00000d90
00000e40
00000ef0
00000fa0
00000050
00000100
000001b0
00000260
00000310
000003c0
00000470
00000520
000005d0
00000680
00000730
000007e0
00000890
00000940
000009f0
00000aa0
00000b50
00000c00
00000cb0
00000d60
00000e10
00000ec0
00000f70
00000020
000000d0
00000180
00000230
000002e0
00000390
00000440
000004f0
000005a0
00000650
00000700
000007b0
00000860
00000910
000009c0
00000a70
00000b20
00000bd0
00000c80
00000d30
00000de0
00000e90
00000f40
00000ff0
000000a0
00000150
00000200
000002b0
00000360
00000410
000004c0
00000570
00000620
000006d0
00000780
00000830
000008e0
00000990
00000a40
00000af0
00000ba0
00000c50
00000d00
00000db0
00000e60
00000f10
00000fc0
00000070
00000120
000001d0
00000280
00000330
000003e0
00000490
00000540
000005f0
000006a0
00000750
00000800
000008b0
00000960
00000a10
00000ac0
00000b70
00000c20
00000cd0
00000d80
00000e30
00000ee0
00000f90
00000040
000000f0
000001a0
00000250
00000300
000003b0
00000460
00000510
000005c0
00000670
00000720
000007d0
00000880
00000930
000009e0
00000a90
00000b40
00000bf0
00000ca0
00000d50
00000e00
00000eb0
00000f60
00000010
000000c0
00000170
00000220
000002d0
00000380
00000430
000004e0
00000590
00000640
000006f0
000007a0
00000850
00000900
000009b0
00000a60
00000b10
00000bc0
00000c70
00000d20
00000dd0
00000e80
00000f30
00000fe0
00000090
00000140
000001f0
000002a0
00000350
00000400
000004b0
00000560
00000610
000006c0
00000770
00000820
000008d0
00000980
00000a30
00000ae0
00000b90
00000c40
00000cf0
00000da0
00000e50
00000f00
00000fb0
00000060
00000110
000001c0
00000270
00000320
000003d0
00000480
00000530
000005e0
00000690
00000740
000007f0
000008a0
00000950
00000a00
00000ab0
00000b60
00000c10
00000cc0
00000d70
00000e20
00000ed0
00000f80
00000030
000000e0
00000190
00000240
000002f0
000003a0
00000450
00000500
000005b0
00000660
00000710
000007c0
00000870
00000920
000009d0
00000a80
00000b30
00000be0
00000c90
00000d40
00000df0
00000ea0
00000f50
00000000
000000b0
00000160
00000210
000002c0
00000370
00000420
000004d0
00000580
00000630
000006e0
00000790
00000840
000008f0
000009a0
00000a50
00000b00
00000bb0
00000c60
00000d10
00000dc0
00000e70
00000f20
00000fd0
00000080
00000130
000001e0
00000290
00000340
000003f0
000004a0
00000550
00000600
000006b0
00000760
00000810
000008c0
00000970
00000a20
00000ad0
00000b80
00000c30
00000ce0
00000d90
00000e40
00000ef0
00000fa0
00000050
00000100
000001b0
00000260
00000310
000003c0
00000470
00000520
000005d0
00000680
00000730
000007e0
00000890
00000940
000009f0
00000aa0
00000b50
00000c00
00000cb0
00000d60
00000e10
00000ec0
