// KWS FC3 weights 800x16b Q4.12 sha=864cc5690d5f
0070
0120
01d0
0280
0330
03e0
0490
0540
05f0
06a0
0750
0800
08b0
0960
0a10
0ac0
0b70
0c20
0cd0
0d80
0e30
0ee0
0f90
0040
00f0
01a0
0250
0300
03b0
0460
0510
05c0
0670
0720
07d0
0880
0930
09e0
0a90
0b40
0bf0
0ca0
0d50
0e00
0eb0
0f60
0010
00c0
0170
0220
02d0
0380
0430
04e0
0590
0640
06f0
07a0
0850
0900
09b0
0a60
0b10
0bc0
0c70
0d20
0dd0
0e80
0f30
0fe0
0090
0140
01f0
02a0
0350
0400
04b0
0560
0610
06c0
0770
0820
08d0
0980
0a30
0ae0
0b90
0c40
0cf0
0da0
0e50
0f00
0fb0
0060
0110
01c0
0270
0320
03d0
0480
0530
05e0
0690
0740
07f0
08a0
0950
0a00
0ab0
0b60
0c10
0cc0
0d70
0e20
0ed0
0f80
0030
00e0
0190
0240
02f0
03a0
0450
0500
05b0
0660
0710
07c0
0870
0920
09d0
0a80
0b30
0be0
0c90
0d40
0df0
0ea0
0f50
0000
00b0
0160
0210
02c0
0370
0420
04d0
0580
0630
06e0
0790
0840
08f0
09a0
0a50
0b00
0bb0
0c60
0d10
0dc0
0e70
0f20
0fd0
0080
0130
01e0
0290
0340
03f0
04a0
0550
0600
06b0
0760
0810
08c0
0970
0a20
0ad0
0b80
0c30
0ce0
0d90
0e40
0ef0
0fa0
0050
0100
01b0
0260
0310
03c0
0470
0520
05d0
0680
0730
07e0
0890
0940
09f0
0aa0
0b50
0c00
0cb0
0d60
0e10
0ec0
0f70
0020
00d0
0180
0230
02e0
0390
0440
04f0
05a0
0650
0700
07b0
0860
0910
09c0
0a70
0b20
0bd0
0c80
0d30
0de0
0e90
0f40
0ff0
00a0
0150
0200
02b0
0360
0410
04c0
0570
0620
06d0
0780
0830
08e0
0990
0a40
0af0
0ba0
0c50
0d00
0db0
0e60
0f10
0fc0
0070
0120
01d0
0280
0330
03e0
0490
0540
05f0
06a0
0750
0800
08b0
0960
0a10
0ac0
0b70
0c20
0cd0
0d80
0e30
0ee0
0f90
0040
00f0
01a0
0250
0300
03b0
0460
0510
05c0
0670
0720
07d0
0880
0930
09e0
0a90
0b40
0bf0
0ca0
0d50
0e00
0eb0
0f60
0010
00c0
0170
0220
02d0
0380
0430
04e0
0590
0640
06f0
07a0
0850
0900
09b0
0a60
0b10
0bc0
0c70
0d20
0dd0
0e80
0f30
0fe0
0090
0140
01f0
02a0
0350
0400
04b0
0560
0610
06c0
0770
0820
08d0
0980
0a30
0ae0
0b90
0c40
0cf0
0da0
0e50
0f00
0fb0
0060
0110
01c0
0270
0320
03d0
0480
0530
05e0
0690
0740
07f0
08a0
0950
0a00
0ab0
0b60
0c10
0cc0
0d70
0e20
0ed0
0f80
0030
00e0
0190
0240
02f0
03a0
0450
0500
05b0
0660
0710
07c0
0870
0920
09d0
0a80
0b30
0be0
0c90
0d40
0df0
0ea0
0f50
0000
00b0
0160
0210
02c0
0370
0420
04d0
0580
0630
06e0
0790
0840
08f0
09a0
0a50
0b00
0bb0
0c60
0d10
0dc0
0e70
0f20
0fd0
0080
0130
01e0
0290
0340
03f0
04a0
0550
0600
06b0
0760
0810
08c0
0970
0a20
0ad0
0b80
0c30
0ce0
0d90
0e40
0ef0
0fa0
0050
0100
01b0
0260
0310
03c0
0470
0520
05d0
0680
0730
07e0
0890
0940
09f0
0aa0
0b50
0c00
0cb0
0d60
0e10
0ec0
0f70
0020
00d0
0180
0230
02e0
0390
0440
04f0
05a0
0650
0700
07b0
0860
0910
09c0
0a70
0b20
0bd0
0c80
0d30
0de0
0e90
0f40
0ff0
00a0
0150
0200
02b0
0360
0410
04c0
0570
0620
06d0
0780
0830
08e0
0990
0a40
0af0
0ba0
0c50
0d00
0db0
0e60
0f10
0fc0
0070
0120
01d0
0280
0330
03e0
0490
0540
05f0
06a0
0750
0800
08b0
0960
0a10
0ac0
0b70
0c20
0cd0
0d80
0e30
0ee0
0f90
0040
00f0
01a0
0250
0300
03b0
0460
0510
05c0
0670
0720
07d0
0880
0930
09e0
0a90
0b40
0bf0
0ca0
0d50
0e00
0eb0
0f60
0010
00c0
0170
0220
02d0
0380
0430
04e0
0590
0640
06f0
07a0
0850
0900
09b0
0a60
0b10
0bc0
0c70
0d20
0dd0
0e80
0f30
0fe0
0090
0140
01f0
02a0
0350
0400
04b0
0560
0610
06c0
0770
0820
08d0
0980
0a30
0ae0
0b90
0c40
0cf0
0da0
0e50
0f00
0fb0
0060
0110
01c0
0270
0320
03d0
0480
0530
05e0
0690
0740
07f0
08a0
0950
0a00
0ab0
0b60
0c10
0cc0
0d70
0e20
0ed0
0f80
0030
00e0
0190
0240
02f0
03a0
0450
0500
05b0
0660
0710
07c0
0870
0920
09d0
0a80
0b30
0be0
0c90
0d40
0df0
0ea0
0f50
0000
00b0
0160
0210
02c0
0370
0420
04d0
0580
0630
06e0
0790
0840
08f0
09a0
0a50
0b00
0bb0
0c60
0d10
0dc0
0e70
0f20
0fd0
0080
0130
01e0
0290
0340
03f0
04a0
0550
0600
06b0
0760
0810
08c0
0970
0a20
0ad0
0b80
0c30
0ce0
0d90
0e40
0ef0
0fa0
0050
0100
01b0
0260
0310
03c0
0470
0520
05d0
0680
0730
07e0
0890
0940
09f0
0aa0
0b50
0c00
0cb0
0d60
0e10
0ec0
0f70
0020
00d0
0180
0230
02e0
0390
0440
04f0
05a0
0650
0700
07b0
0860
0910
09c0
0a70
0b20
0bd0
0c80
0d30
0de0
0e90
0f40
0ff0
00a0
0150
0200
02b0
0360
0410
04c0
0570
0620
06d0
0780
0830
08e0
0990
0a40
0af0
0ba0
0c50
0d00
0db0
0e60
0f10
0fc0
0070
0120
01d0
0280
0330
03e0
0490
0540
05f0
06a0
0750
0800
08b0
0960
0a10
0ac0
0b70
0c20
0cd0
0d80
0e30
0ee0
0f90
0040
00f0
01a0
0250
0300
03b0
0460
0510
05c0
