// conv1 weights 150x16b Q4.12 sha=deeab4f1397d
0030
00a0
0110
0180
01f0
0260
02d0
0340
03b0
0420
0490
0500
0570
05e0
0650
06c0
0730
07a0
0810
0880
08f0
0960
09d0
0a40
0ab0
0b20
0b90
0c00
0c70
0ce0
0d50
0dc0
0e30
0ea0
0f10
0f80
0ff0
0060
00d0
0140
01b0
0220
0290
0300
0370
03e0
0450
04c0
0530
05a0
0610
0680
06f0
0760
07d0
0840
08b0
0920
0990
0a00
0a70
0ae0
0b50
0bc0
0c30
0ca0
0d10
0d80
0df0
0e60
0ed0
0f40
0fb0
0020
0090
0100
0170
01e0
0250
02c0
0330
03a0
0410
0480
04f0
0560
05d0
0640
06b0
0720
0790
0800
0870
08e0
0950
09c0
0a30
0aa0
0b10
0b80
0bf0
0c60
0cd0
0d40
0db0
0e20
0e90
0f00
0f70
0fe0
0050
00c0
0130
01a0
0210
0280
02f0
0360
03d0
0440
04b0
0520
0590
0600
0670
06e0
0750
07c0
0830
08a0
0910
0980
09f0
0a60
0ad0
0b40
0bb0
0c20
0c90
0d00
0d70
0de0
0e50
0ec0
0f30
0fa0
0010
0080
00f0
0160
